0x59dd7,0x5b1ec,0xeb8939,0x497d9,0xf9a260,0xf61685,0xf66cc0,0x963e7,0xf8d507,0x47253,0xed71f,0x69ffd,0xf48210,0x6af00,0x14f95a,0x5e4ba
0xdee5f,0x2b5d2d,0xe726b1,0x1d792a,0x175723,0xec3671,0xf620c0,0xf366a,0xf8ca08,0x53c9f,0xf41707,0x1bd694,0xfa0c38,0x13a5fa,0x9e36f,0xf45221
0x134dfe,0xecab0,0x72d9e,0xfc3662,0x12af4f,0xf12ab6,0x379f7,0xf28506,0xf71919,0x1afdd8,0xf91c56,0xf8db71,0xf60b97,0xf90010,0xbfceb,0xead6d2
0x13b66d,0x1bcc67,0xf02e15,0xeb8643,0x1b9657,0x5e91b,0xf6c2d3,0xe20687,0x63d71,0xf07114,0x6e9b8,0xf29a43,0xea2c61,0xea11ad,0xf9064c,0xf1489d
0xfc918c,0xcdd7b,0xf50e40,0xf018b8,0xf5b457,0xf06b62,0xf28d01,0x1ab5e0,0x63f28,0xf42817,0x1e38e0,0xfa2b54,0xe8ee4,0xf54185,0x7f6aa,0xf6da9a
0xa6933,0x6f4c8,0xf24e2f,0x1cd6e7,0xf44d6c,0xb5a5e,0x5cdc7,0x655f9,0x1cafda,0xf469af,0xe50c61,0xf51459,0x9ee3b,0x9925d,0x6b55e,0x4af24
0x5355e,0xf8890c,0xec4ab0,0xe5a909,0xf9a56d,0xf29089,0xf20810,0x5da75,0xf5b518,0x6ffd0,0xf36360,0xfa5d3,0xe80053,0xf6b383,0xa9baf,0xaf329
0xf93605,0xd5b75,0x7aec7,0xe6c309,0xf7091d,0x196740,0xf0c2a5,0x34a50,0xf07061,0x8f771,0xf24d33,0xfe65c,0xfa0868,0x357e0,0xeca299,0xe0da90
0xd95a0,0xfc8a58,0xf43580,0xf26148,0x54791,0xbdb2c,0xe4a1aa,0xfa7089,0xf82068,0x7eb4b,0x4a4a6,0xfabf0,0x1b9a58,0x9fb73,0x519cc,0xf8cc68
0xece2cc,0xb5b93,0xfa9573,0x16979d,0xe0b0b2,0xfa496d,0x39fc8,0x8d399,0xf3129d,0x74f9f,0xf15a39,0x73ed4,0xdb6c8,0xfeb7a,0x57d5d,0xec5985
0xf25ad7,0xa5cee,0x171ddb,0xf92d52,0xf00c55,0xecc4e2,0x696d9,0xed4f0,0xf66d31,0xf90218,0xf82284,0x71e64,0x346d6,0x66f5e,0xf8c159,0xeb340e
0xf39503,0x5bac9,0x6adf9,0xe4d20c,0xf5482e,0x37bb0,0xe999a9,0xed6805,0x394f2,0xcb19d,0x1a49fb,0xe1714c,0xfc2491,0xe96c19,0xda4a0,0xddf49
0xf0352c,0x7467b,0x176a7d,0xf8940b,0xf80934,0xabba6,0xee484f,0xfae60,0x93ea5,0xf43635,0x1b29e8,0xfb4460,0xe42038,0xee12b2,0xf7034f,0x3b734
0x4d923,0x8df73,0x14fbb9,0xee2720,0x17ff55,0xad7bc,0xee0112,0x46eca,0xf292dc,0xf72c56,0xf4eec,0xe8ccdc,0xfb8b47,0xf31ad1,0xf68459,0x7bc78
0x749c8,0x1f8ce3,0xf59531,0xf9442c,0x1d372f,0xe00830,0xfaca17,0x7e539,0x3dbf5,0xe6a128,0x16bebc,0x5c667,0xbeb2c,0xf862a0,0xb671a,0x9e96e
0x97e3f,0xe40a1b,0xf31268,0xee0409,0xf47019,0x8e991,0x9b3db,0xf44644,0x17ff1f,0xfb231d,0xf46480,0xf66424,0xe82820,0xf50185,0xf4d40d,0x6527f
0x46cdd,0xf852b6,0xfc14b0,0xee2ae2,0xf92858,0xf412dc,0xf444cc,0x64c6b,0xdcd5e,0x555df,0xb93e9,0xee53b,0xa7735,0x1d7b27,0xf20a21,0x5cfee
0x53669,0xf03806,0xf4d48f,0xb6972,0xf4bda,0x139ba7,0xaf655,0x5aef3,0x367de,0x4c9d6,0xeea6c,0xa6acc,0xfc2944,0xffd78,0xe411a6,0xf66681
0x97800,0xe20227,0x95354,0x168f79,0xf38631,0xe8a9c7,0xcd79f,0xf98b49,0xfa9471,0x196e8f,0x5bffd,0xf4ea8,0xeace1b,0xe14416,0xeab853,0xc6e4e
0xf88c16,0xf2615b,0xf38e07,0x6ffff,0xf00853,0xf14a6e,0xf4058e,0x1ce77b,0xf6d1a6,0xfb8b92,0xed7262,0xea1499,0xf98c65,0x37730,0x37cce,0xf6c321
0xf10420,0xcf6fc,0xf54725,0xf63005,0x3c696,0xf25162,0xf56045,0x4cd2a,0xf01060,0x1adb96,0x3f667,0xaeaea,0xf4e497,0xf26184,0x1fdf9a,0x34f50
0xb9b34,0xf83522,0x1cbc7f,0x468ed,0xd3f29,0xf470b2,0x4ed50,0x7cac7,0xdf9fa,0xfc5c58,0xf1a66f,0x1b5ee0,0x1d34de,0xde740,0x9563f,0x18cef4
0x14f73b,0x12f930,0x78df4,0x6be59,0x1234da,0x9bd59,0xfa556a,0x4fcbd,0x5efb0,0xee6597,0x1b3de3,0xf32d03,0xe7798,0xe71253,0xf6c0b1,0xa791b
0xf4a631,0xee05aa,0xccaf0,0x7bac7,0x5bbf4,0xf1816c,0xa7b2e,0x759a3,0xddb80,0xd6d2d,0xfab499,0xfb0d23,0xe86860,0x92bbf,0xfa4824,0x1bed52
0xbaeea,0xf25166,0xfb4007,0xb7bb0,0x3cdfc,0xe8415c,0xf84a99,0x9bbfb,0xf08090,0xf8da40,0xf80c47,0xf32a67,0x577b9,0x35668,0xf16198,0xfcd3b
