0xDF,0xFC,0x32,0x09,0x1A,0xF2,0x0D,0x1A,0x05,0xF7
0x01,0xF5,0xEB,0x2F,0x18,0xF6,0x04,0xE3,0x08,0xF1
0xF5,0x1C,0xF3,0x0B,0x08,0xF4,0xEF,0x0C,0xE1,0xFB
0x00,0x23,0x1E,0x15,0xEA,0x10,0x10,0xF4,0x00,0xF6
0xE4,0xE4,0xFC,0xFD,0xEC,0x1C,0xDD,0x04,0xFE,0x0A
