0x08,0x07,0xFF,0xE5,0xEE,0x0A,0x11,0x01,0xFC,0xFE,0xFD,0x0E,0xF5,0x0D,0x0F,0x19,0xF9,0xE5,0xE7,0x16,0x1D,0x15,0xFE,0x0D
0x13,0x03,0xF9,0x18,0xFD,0xF9,0x10,0x1E,0xEE,0xF6,0x04,0xF0,0xF0,0xFE,0xE5,0x27,0xF8,0x1C,0x21,0xFB,0xE8,0x1D,0xF3,0xF7
0x1C,0x0B,0x10,0xFF,0x14,0xFF,0x03,0x09,0xFF,0xF7,0x09,0x16,0x07,0xFB,0x09,0x06,0x0E,0x09,0xFF,0x01,0xFA,0x0C,0xFE,0xFC
0xF8,0x00,0x04,0x00,0xF4,0xF3,0x0F,0xE4,0x11,0xE4,0xFA,0xF6,0xF3,0x0A,0x18,0xE3,0x00,0x08,0x04,0xF7,0x00,0x1A,0x10,0xFB
0x0D,0x13,0xF3,0xF1,0x0F,0x08,0x0C,0xF8,0xFB,0x09,0x0C,0xF4,0x22,0xFD,0xE9,0xFC,0xF8,0xEC,0x01,0xFB,0xFD,0x00,0x0B,0xF4
